module {
  func.func @main(%arg0: tensor<1x12x!FHE.esint<7>>) -> tensor<1x2x!FHE.esint<6>> {
    %cst = arith.constant dense<"0x000D0D0D00020E010103010E0F010E0D0D03030001010200010F0E010E010D0D0F0201010F0D000F000103010F01030F00030F0D010E03000200010E000100030D02000E000E0D01020F000200000F000D0200000203020F0F01020E0E0D0F010F0100020D0E0D0F0F020202000D010F0103010E0E0F02010F030E030F010E02000E010F02010D000E0D0E0E0F010200020301000003000E0F010200020E010E00020E0E000F0D0F000F000F01000E030D0002010F000300030101010F010F0E0E0E0100000F000F02000E010000010D0D0F0E020E0101000201010D0D000E020F0D0302020F02000F0200020E000200020F020301030F0E02020302030D0E0102010F0102020001020D02010E0202020E02020E0E0E020F0F0E02020E00010E02000000020F010E0E0F01030F000F0E0003030F0E02010D0F0E030D0E010E0F010E0D0F0E00020E0000020D020E01000F0200010203030D010F010001020E0F0D0F0103010E0100"> : tensor<12x30xi4>
    %0 = "FHELinalg.matmul_eint_int"(%arg0, %cst) : (tensor<1x12x!FHE.esint<7>>, tensor<12x30xi4>) -> tensor<1x30x!FHE.esint<7>>
    %cst_0 = arith.constant dense<[[0, 1, 2, 3, 4, 5, 6, 7, 8, 9, 10, 6, 11, 12, 13, 9, 14, 15, 10, 16, 12, 8, 17, 18, 19, 0, 20, 1, 21, 22]]> : tensor<1x30xindex>
    %cst_1 = arith.constant dense<"0x0000000000000000000000000000000000000000000000000000000000000000000000000000000000000000000000000000000000000000000000000000000000000000000000000000000000000000000000000000000000000000000000000100000000000000010000000000000001000000000000000100000000000000010000000000000001000000000000000100000000000000010000000000000001000000000000000100000000000000010000000000000002000000000000000200000000000000020000000000000002000000000000000200000000000000020000000000000002000000000000000200000000000000020000000000000002000000000000000300000000000000030000000000000003000000000000000300000000000000030000000000000003000000000000000300000000000000030000000000000003000000000000000300000000000000030000000000000003000000000000000300000000000000030000000000000003000000000000000300000000000000030000000000000003000000000000000300000000000000030000000000000003000000000000000300000000000000030000000000000003000000000000000300000000000000030000000000000003000000000000000300000000000000030000000000000003000000000000000300000000000000000000000000000000000000000000000000000000000000000000000000000000000000000000000000000000000000000000000000000000000000000000000000000000000000000000000000000000000000000000000000000000000000000000000000000000000000000000000000000000000000000000000000000000000000000000000000000000000000000000000000000000000000000000000000000000000000000000000000000000000000000000000000000000000000000000000000000000000000000000000000000000000000000000000000000000000000000000000000000000000000000000000000000000000000000000000000000000000000000000000000000000000000000000000000000000000000000000000000000000000000000000000000000000000000000000000000000000000000000000000000000000000000000000000000000000000000000000000000000000000000000000000000000000000000000000000000000000000000000000000000000000000000000000000000000000000000000000000000000000000000000000000000000000000000000000000000000000000000000000000000000000000000000000000000000000000000000000000000000000000000000000000000000000000000000000000000000000000000000000000000000000000000000000000000000000000000000000000000000000000000000000000000000000000000000000000000000001000000000000000100000000000000010000000000000001000000000000000100000000000000010000000000000001000000000000000100000000000000010000000000000001000000000000000100000000000000020000000000000002000000000000000200000000000000020000000000000002000000000000000200000000000000020000000000000002000000000000000200000000000000020000000000000003000000000000000300000000000000030000000000000003000000000000000300000000000000030000000000000003000000000000000300000000000000030000000000000003000000000000000300000000000000030000000000000003000000000000000300000000000000030000000000000003000000000000000300000000000000030000000000000003000000000000000300000000000000030000000000000003000000000000000300000000000000030000000000000003000000000000000300000000000000030000000000000003000000000000000300000000000000030000000000000003000000000000000300000000000000030000000000000003000000000000000300000000000000030000000000000003000000000000000000000000000000000000000000000000000000000000000000000000000000000000000000000000000000000000000000000000000000000000000000000000000000000000000000000000000000000000000000000000000000000000000000000000000000000000000000000000000000000000000000000000000000000000000000000000000000000000000000000000000000000000000000000000000000000000000000000000000000000000000000000000000000000000000000000000000000000000000000000000000000000000000000000000000000000000000000000000000000000000000000000000000000000000000000000000000000000000000000000000000000000000000000000000000000000000000000000000000000000000000000000000000000000000000000000000000000000000000000000000000000000000000000000000000000000000000000000000000000000000000000000000000000000000000000000000000000000000000000000000000000000000000000000000000000000000000000000000000000000000000000000000000000000000000000000000000000000000000000000000000000000000000000000000000000000000000000000000000000000000000000000000000000000000000000000000000000000000000000000000000000000000000000000000000000000000000000000000000000000000000000000000000000000000000100000000000000010000000000000001000000000000000100000000000000010000000000000001000000000000000100000000000000010000000000000001000000000000000100000000000000020000000000000002000000000000000200000000000000020000000000000002000000000000000200000000000000020000000000000002000000000000000200000000000000020000000000000003000000000000000300000000000000030000000000000003000000000000000300000000000000030000000000000003000000000000000300000000000000030000000000000003000000000000000300000000000000030000000000000003000000000000000300000000000000030000000000000003000000000000000300000000000000030000000000000003000000000000000300000000000000030000000000000003000000000000000300000000000000030000000000000003000000000000000300000000000000030000000000000003000000000000000300000000000000030000000000000003000000000000000300000000000000030000000000000003000000000000000300000000000000030000000000000003000000000000000300000000000000030000000000000000000000000000000000000000000000000000000000000000000000000000000000000000000000000000000000000000000000000000000000000000000000000000000000000000000000000000000000000000000000000000000000000000000000000000000000000000000000000000000000000000000000000000000000000000000000000000000000000000000000000000000000000000000000000000000000000000000000000000000000000000000000000000000000000000000000000000000000000000000000000000000000000000000000000000000000000000000000000000000000000000000000000000000000000000000000000000000000000000000000000000000000000000000000000000000000000000000000000000000000000000000000000000000000000000000000000000000000000000000000000000000000000000000000000000000000000000000000000000000000000000000000000000000000000000000000000000000000000000000000000000000000000000000000000000000000000000000000000000000000000000000000000000000000000000000000000000000000000000000000000000000000000000000000000000000000000000000000000000000000000000000000000000000000000000000000000000000000000000000000000000000100000000000000010000000000000001000000000000000100000000000000010000000000000001000000000000000100000000000000010000000000000002000000000000000200000000000000020000000000000002000000000000000200000000000000020000000000000002000000000000000200000000000000020000000000000002000000000000000300000000000000030000000000000003000000000000000300000000000000030000000000000003000000000000000300000000000000030000000000000003000000000000000300000000000000030000000000000003000000000000000300000000000000030000000000000003000000000000000300000000000000030000000000000003000000000000000300000000000000030000000000000003000000000000000300000000000000030000000000000003000000000000000300000000000000030000000000000003000000000000000300000000000000030000000000000003000000000000000300000000000000030000000000000003000000000000000300000000000000030000000000000003000000000000000300000000000000030000000000000003000000000000000300000000000000030000000000000003000000000000000300000000000000030000000000000003000000000000000300000000000000000000000000000000000000000000000000000000000000000000000000000000000000000000000000000000000000000000000000000000000000000000000000000000000000000000000000000000000000000000000000000000000000000000000000000000000000000000000000000000000000000000000000000000000000000000000000000000000000000000000000000000000000000000000000000000000000000000000000000000000000000000000000000000000000000000000000000000000000000000000000000000000000000000000000000000000000000000000000000000000000000000000000000000000000000000000000000000000000000000000000000000000000000000000000000000000000000000000000000000000000000000000000000000000000000000000000000000000000000000000000000000000000000000000000000000000000000000000000000000000000000000000000000000000000000000000000000000000000000000000000000000000000000000000000000000000000000000000000000000000000000000000000000000000000000000000000000000000000000000000000000000000000000000000000000000000000000000000000000000000000000000000000000001000000000000000100000000000000010000000000000001000000000000000100000000000000010000000000000001000000000000000100000000000000010000000000000001000000000000000100000000000000010000000000000001000000000000000200000000000000020000000000000002000000000000000200000000000000020000000000000002000000000000000200000000000000020000000000000002000000000000000200000000000000030000000000000003000000000000000300000000000000030000000000000003000000000000000300000000000000030000000000000003000000000000000300000000000000030000000000000003000000000000000300000000000000030000000000000003000000000000000300000000000000030000000000000003000000000000000300000000000000030000000000000003000000000000000300000000000000030000000000000003000000000000000300000000000000030000000000000003000000000000000300000000000000030000000000000003000000000000000300000000000000030000000000000003000000000000000300000000000000030000000000000003000000000000000300000000000000030000000000000003000000000000000300000000000000030000000000000003000000000000000300000000000000030000000000000003000000000000000000000000000000000000000000000000000000000000000000000000000000000000000000000000000000000000000000000000000000000000000000000000000000000000000000000000000000000000000000000000000000000000000000000000000000000000000000000000000000000000000000000000000000000000000000000000000000000000000000000000000000000000000000000000000000000000000000000000000000000000000000000000000000000000000000000000000000000000000000000000000000000000000000000000000000000000000000000000000000000000000000000000000000000000000000000000000000000000000000000000000000000000000000000000000000000000000000000000000000000000000000000000000000000000000000000000000000000000000000000000000000000000000000000000000000000000000000000000000000000000000000000000000000000000000000000000000000000000000000000000000000000000000000000000000000000000000000000000000000000000000000000000000000000000000000000000000000000000000000000000000000000000000000000000000000000000000000000000000000000000000000000000000000000000000000000000000000000000000100000000000000000000000000000000000000000000000000000000000000000000000000000000000000000000000000000000000000000000000000000000000000000000000000000000000000000000000000000000000000000000000000000000000000010000000000000001000000000000000100000000000000010000000000000001000000000000000100000000000000010000000000000001000000000000000100000000000000010000000000000002000000000000000200000000000000020000000000000002000000000000000200000000000000020000000000000002000000000000000200000000000000020000000000000002000000000000000200000000000000030000000000000003000000000000000300000000000000030000000000000003000000000000000300000000000000030000000000000003000000000000000300000000000000030000000000000003000000000000000300000000000000030000000000000003000000000000000300000000000000030000000000000003000000000000000300000000000000030000000000000003000000000000000300000000000000030000000000000003000000000000000300000000000000030000000000000003000000000000000300000000000000030000000000000003000000000000000300000000000000030000000000000000000000000000000000000000000000000000000000000000000000000000000000000000000000000000000000000000000000000000000000000000000000000000000000000000000000000000000000000000000000000000000000000000000000000000000000000000000000000000000000000000000000000000000000000000000000000000000000000000000000000000000000000000000000000000000000000000000000000000000000000000000000000000000000000000000000000000000000000000000000000000000000000000000000000000000000000000000000000000000000000000000000000000000000000000000000000000000000000000000000000000000000000000000000000000000000000000000000000000000000000000000000000000000000000000000000000000000000000000000000000000000000000000000000000000000000000000000000000000000000000000000000000000000000000000000000000000000000000000000000000000000000000000000000000000000000000000000000000000000000000000000000000000000000000000000000000000000000000000000000000000000000000000000000000000000000000000000000000000000000000000000000000000000000000000000000000000000000000000000000000000000000000000000000000000000000000000000000000000000000000000000000000000000000000000000000000000000000000000000000010000000000000001000000000000000100000000000000010000000000000001000000000000000100000000000000010000000000000001000000000000000100000000000000010000000000000002000000000000000200000000000000020000000000000002000000000000000200000000000000020000000000000002000000000000000200000000000000020000000000000002000000000000000200000000000000030000000000000003000000000000000300000000000000030000000000000003000000000000000300000000000000030000000000000003000000000000000300000000000000030000000000000003000000000000000300000000000000030000000000000003000000000000000300000000000000030000000000000003000000000000000300000000000000030000000000000003000000000000000300000000000000030000000000000003000000000000000300000000000000030000000000000003000000000000000300000000000000030000000000000003000000000000000300000000000000030000000000000003000000000000000300000000000000030000000000000003000000000000000300000000000000000000000000000000000000000000000000000000000000000000000000000000000000000000000000000000000000000000000000000000000000000000000000000000000000000000000000000000000000000000000000000000000000000000000000000000000000000000000000000000000000000000000000000000000000000000000000000000000000000000000000000000000000000000000000000000000000000000000000000000000000000000000000000000000000000000000000000000000000000000000000000000000000000000000000000000000000000000000000000000000000000000000000000000000000000000000000000000000000000000000000000000000000000000000000000000000000000000000000000000000000000000000000000000000000000000000000000000000000000000000000000000000000000000000000000000000000000000000000000000000000000000000000000000000000000000000000000000000000000000000000000000000000000000000000000000000000000000000000000000000000000000000000000000000000000000000000000000000000000000000000000000000000000000000000000000000000000000000000000000000000000000000000000000000000000000000000000000000000000000000000000000000000000000000000000000000000000000000000000001000000000000000100000000000000010000000000000001000000000000000100000000000000010000000000000001000000000000000100000000000000010000000000000001000000000000000200000000000000020000000000000002000000000000000200000000000000020000000000000002000000000000000200000000000000020000000000000002000000000000000200000000000000020000000000000003000000000000000300000000000000030000000000000003000000000000000300000000000000030000000000000003000000000000000300000000000000030000000000000003000000000000000300000000000000030000000000000003000000000000000300000000000000030000000000000003000000000000000300000000000000030000000000000003000000000000000300000000000000030000000000000003000000000000000300000000000000030000000000000003000000000000000300000000000000030000000000000003000000000000000300000000000000030000000000000003000000000000000300000000000000030000000000000003000000000000000300000000000000030000000000000003000000000000000300000000000000030000000000000003000000000000000000000000000000000000000000000000000000000000000000000000000000000000000000000000000000000000000000000000000000000000000000000000000000000000000000000000000000000000000000000000000000000000000000000000000000000000000000000000000000000000000000000000000000000000000000000000000000000000000000000000000000000000000000000000000000000000000000000000000000000000000000000000000000000000000000000000000000000000000000000000000000000000000000000000000000000000000000000000000000000000000000000000000000000000000000000000000000000000000000000000000000000000000000000000000000000000000000000000000000000000000000000000000000000000000000000000000000000000000000000000000000000000000000000000000000000000000000000000000000000000000000000000000000000000000000000000000000000000000000000000000000000000000000000000000000000000000000000000000000000000000000000000000000000000000000000000000000000000000000000000000000000000000000000000000000000000000000000000000000000000000000000000000000000000000000000000000000000000000000000000000000010000000000000001000000000000000100000000000000010000000000000001000000000000000100000000000000010000000000000001000000000000000100000000000000020000000000000002000000000000000200000000000000020000000000000002000000000000000200000000000000020000000000000002000000000000000200000000000000020000000000000003000000000000000300000000000000030000000000000003000000000000000300000000000000030000000000000003000000000000000300000000000000030000000000000003000000000000000300000000000000030000000000000003000000000000000300000000000000030000000000000003000000000000000300000000000000030000000000000003000000000000000300000000000000030000000000000003000000000000000300000000000000030000000000000003000000000000000300000000000000030000000000000003000000000000000300000000000000030000000000000003000000000000000300000000000000030000000000000003000000000000000300000000000000030000000000000003000000000000000300000000000000030000000000000003000000000000000300000000000000030000000000000003000000000000000300000000000000030000000000000000000000000000000000000000000000000000000000000000000000000000000000000000000000000000000000000000000000000000000000000000000000000000000000000000000000000000000000000000000000000000000000000000000000000000000000000000000000000000000000000000000000000000000000000000000000000000000000000000000000000000000000000000000000000000000000000000000000000000000000000000000000000000000000000000000000000000000000000000000000000000000000000000000000000000000000000000000000000000000000000000000000000000000000000000000000000000000000000000000000000000000000000000000000000000000000000000000000000000000000000000000000000000000000000000000000000000000000000000000000000000000000000000000000000000000000000000000000000000000000000000000000000000000000000000000000000000000000000000000000000000000000000000000000000000000000000000000000000000000000000000000000000000000000000000000000000000000000000000000000000000000000000000000000000000000000000000000000000000000000000000000000000000000000000000000000000000000000000001000000000000000000000000000000000000000000000000000000000000000000000000000000000000000000000000000000000000000000000000000000000000000000000000000000000000000000000000000000000000000000000000000000000000000000000000000000000000000000000001000000000000000100000000000000010000000000000001000000000000000100000000000000010000000000000001000000000000000100000000000000010000000000000001000000000000000100000000000000020000000000000002000000000000000200000000000000020000000000000002000000000000000200000000000000020000000000000002000000000000000200000000000000020000000000000003000000000000000300000000000000030000000000000003000000000000000300000000000000030000000000000003000000000000000300000000000000030000000000000003000000000000000300000000000000030000000000000003000000000000000300000000000000030000000000000003000000000000000300000000000000030000000000000003000000000000000300000000000000030000000000000003000000000000000300000000000000030000000000000003000000000000000300000000000000030000000000000003000000000000000300000000000000000000000000000000000000000000000000000000000000000000000000000000000000000000000000000000000000000000000000000000000000000000000000000000000000000000000000000000000000000000000000000000000000000000000000000000000000000000000000000000000000000000000000000000000000000000000000000000000000000000000000000000000000000000000000000000000000000000000000000000000000000000000000000000000000000000000000000000000000000000000000000000000000000000000000000000000000000000000000000000000000000000000000000000000000000000000000000000000000000000000000000000000000000000000000000000000000000000000000000000000000000000000000000000000000000000000000000000000000000000000000000000000000000000000000000000000000000000000000000000000000000000000000000000000000000000000000000000000000000000000000000000000000000000000000000000000000000000000000000000000000000000000000000000000000000000000000000000000000000000000000000000000000000000000000000000000000000000000000000000000000000000000000000000000000000000000000000000000000000000000000000000000000000000000000000000000000000000000000000000000000000000000000000000000000000000000000000000000000000000000000000000000000000000000000000000000000000000000000000000000000000000000000000000000000000000000000000000000000000000000000000000000000000000000000000000000000000000000000000001000000000000000100000000000000010000000000000001000000000000000100000000000000010000000000000001000000000000000100000000000000010000000000000001000000000000000200000000000000020000000000000002000000000000000200000000000000020000000000000002000000000000000200000000000000020000000000000002000000000000000200000000000000030000000000000003000000000000000300000000000000030000000000000003000000000000000300000000000000030000000000000003000000000000000300000000000000030000000000000003000000000000000300000000000000030000000000000003000000000000000300000000000000030000000000000003000000000000000300000000000000030000000000000003000000000000000300000000000000030000000000000003000000000000000300000000000000030000000000000003000000000000000000000000000000000000000000000000000000000000000000000000000000000000000000000000000000000000000000000000000000000000000000000000000000000000000000000000000000000000000000000000000000000000000000000000000000000000000000000000000000000000000000000000000000000000000000000000000000000000000000000000000000000000000000000000000000000000000000000000000000000000000000000000000000000000000000000000000000000000000000000000000000000000000000000000000000000000000000000000000000000000000000000000000000000000000000000000000000000000000000000000000000000000000000000000000000000000000000000000000000000000000000000000000000000000000000000000000000000000000000000000000000000000000000000000000000000000000000000000000000000000000000000000000000000000000000000000000000000000000000000000000000000000000000000000000000000000000000000000000000000000000000000000000000000000000000000000000000000000000000000000000000000000000000000000000000000000000000000000000000000000000000000000000000000000000000000000000000000000000000000000000000000000000000000000000000000000000000000000000000000000000000000001000000000000000100000000000000010000000000000001000000000000000100000000000000010000000000000001000000000000000100000000000000010000000000000001000000000000000200000000000000020000000000000002000000000000000200000000000000020000000000000002000000000000000200000000000000020000000000000002000000000000000200000000000000020000000000000003000000000000000300000000000000030000000000000003000000000000000300000000000000030000000000000003000000000000000300000000000000030000000000000003000000000000000300000000000000030000000000000003000000000000000300000000000000030000000000000003000000000000000300000000000000030000000000000003000000000000000300000000000000030000000000000003000000000000000300000000000000030000000000000003000000000000000300000000000000030000000000000003000000000000000300000000000000030000000000000003000000000000000300000000000000030000000000000003000000000000000300000000000000030000000000000003000000000000000300000000000000030000000000000000000000000000000000000000000000000000000000000000000000000000000000000000000000000000000000000000000000000000000000000000000000000000000000000000000000000000000000000000000000000000000000000000000000000000000000000000000000000000000000000000000000000000000000000000000000000000000000000000000000000000000000000000000000000000000000000000000000000000000000000000000000000000000000000000000000000000000000000000000000000000000000000000000000000000000000000000000000000000000000000000000000000000000000000000000000000000000000000000000000000000000000000000000000000000000000000000000000000000000000000000000000000000000000000000000000000000000000000000000000000000000000000000000000000000000000000000000000000000000000000000000000000000000000000000000000000000000000000000000000000000000000000000000000000000000000000000000000000000000000000000000000000000000000000000000000000000000000000000000000000000000000000000000000000000000000000000000000000000000000000000000000000000000000000000000000000000000000000000000000000000000000000000000000000000000000000000000000000000000000000000000000000000000000000000000000000000000000000000000000000000000000000000000000000000000000000000000000000000000000000000000000000000000000000000000000010000000000000001000000000000000100000000000000010000000000000001000000000000000100000000000000010000000000000001000000000000000100000000000000010000000000000002000000000000000200000000000000020000000000000002000000000000000200000000000000020000000000000002000000000000000200000000000000020000000000000002000000000000000200000000000000030000000000000003000000000000000300000000000000030000000000000003000000000000000300000000000000030000000000000003000000000000000300000000000000030000000000000003000000000000000300000000000000030000000000000003000000000000000300000000000000030000000000000003000000000000000300000000000000030000000000000003000000000000000300000000000000030000000000000003000000000000000300000000000000030000000000000003000000000000000300000000000000030000000000000003000000000000000300000000000000000000000000000000000000000000000000000000000000000000000000000000000000000000000000000000000000000000000000000000000000000000000000000000000000000000000000000000000000000000000000000000000000000000000000000000000000000000000000000000000000000000000000000000000000000000000000000000000000000000000000000000000000000000000000000000000000000000000000000000000000000000000000000000000000000000000000000000000000000000000000000000000000000000000000000000000000000000000000000000000000000000000000000000000000000000000000000000000000000000000000000000000000000000000000000000000000000000000000000000000000000000000000000000000000000000000000000000000000000000000000000000000000000000000000000000000000000000000000000000000000000000000000000000000000000000000000000000000000000000000000000000000000000000000000000000000000000000000000000000000000000000000000000000000000000000000000000000000000000000000000000000000000000000000000000000000000000000000000000000000000000000000000000000000000000000000000000000000000000000000000000000000000000000000000000000000000000000000000000000000000000000000000000000000000000000000000000000000000000000000100000000000000010000000000000001000000000000000100000000000000010000000000000001000000000000000100000000000000010000000000000001000000000000000100000000000000020000000000000002000000000000000200000000000000020000000000000002000000000000000200000000000000020000000000000002000000000000000200000000000000020000000000000003000000000000000300000000000000030000000000000003000000000000000300000000000000030000000000000003000000000000000300000000000000030000000000000003000000000000000300000000000000030000000000000003000000000000000300000000000000030000000000000003000000000000000300000000000000030000000000000003000000000000000300000000000000030000000000000003000000000000000300000000000000030000000000000003000000000000000300000000000000030000000000000003000000000000000300000000000000030000000000000003000000000000000300000000000000030000000000000003000000000000000300000000000000030000000000000003000000000000000000000000000000000000000000000000000000000000000000000000000000000000000000000000000000000000000000000000000000000000000000000000000000000000000000000000000000000000000000000000000000000000000000000000000000000000000000000000000000000000000000000000000000000000000000000000000000000000000000000000000000000000000000000000000000000000000000000000000000000000000000000000000000000000000000000000000000000000000000000000000000000000000000000000000000000000000000000000000000000000000000000000000000000000000000000000000000000000000000000000000000000000000000000000000000000000000000000000000000000000000000000000000000000000000000000000000000000000000000000000000000000000000000000000000000000000000000000000000000000000000000000000000000000000000000000000000000000000000000000000000000000000000000000000000000000000000000000000000000000000000000000000000000000000000000000000000000000000000000000000000000000000000000000000000000000000000000000000000000000000000000000000000000000000000000000000000000000000000000000000000000000000000000000000000000000000000000000000000000000000000000000000000000000000000000000000000000000000000000000000000000000000000000000000000000000000000000000000000000000000000000000000000000000000000000000000000000000000000000000000000000010000000000000001000000000000000100000000000000010000000000000001000000000000000100000000000000010000000000000001000000000000000100000000000000010000000000000002000000000000000200000000000000020000000000000002000000000000000200000000000000020000000000000002000000000000000200000000000000020000000000000002000000000000000200000000000000030000000000000003000000000000000300000000000000030000000000000003000000000000000300000000000000030000000000000003000000000000000300000000000000030000000000000003000000000000000300000000000000030000000000000003000000000000000300000000000000030000000000000003000000000000000300000000000000030000000000000003000000000000000300000000000000030000000000000003000000000000000300000000000000030000000000000003000000000000000300000000000000030000000000000000000000000000000000000000000000000000000000000000000000000000000000000000000000000000000000000000000000000000000000000000000000000000000000000000000000000000000000000000000000000000000000000000000000000000000000000000000000000000000000000000000000000000000000000000000000000000000000000000000000000000000000000000000000000000000000000000000000000000000000000000000000000000000000000000000000000000000000000000000000000000000000000000000000000000000000000000000000000000000000000000000000000000000000000000000000000000000000000000000000000000000000000000000000000000000000000000000000000000000000000000000000000000000000000000000000000000000000000000000000000000000000000000000000000000000000000000000000000000000000000000000000000000000000000000000000000000000000000000000000000000000000000000000000000000000000000000000000000000000000000000000000000000000000000000000000000000000000000000000000000000000000000000000000000000000000000000000000000000000000000000000000000000000000000000000000000000000000000000000000000000000000000000000000010000000000000001000000000000000100000000000000010000000000000001000000000000000100000000000000010000000000000001000000000000000100000000000000010000000000000002000000000000000200000000000000020000000000000002000000000000000200000000000000020000000000000002000000000000000200000000000000020000000000000002000000000000000300000000000000030000000000000003000000000000000300000000000000030000000000000003000000000000000300000000000000030000000000000003000000000000000300000000000000030000000000000003000000000000000300000000000000030000000000000003000000000000000300000000000000030000000000000003000000000000000300000000000000030000000000000003000000000000000300000000000000030000000000000003000000000000000300000000000000030000000000000003000000000000000300000000000000030000000000000003000000000000000300000000000000030000000000000003000000000000000300000000000000030000000000000003000000000000000300000000000000030000000000000003000000000000000300000000000000030000000000000003000000000000000300000000000000000000000000000000000000000000000000000000000000000000000000000000000000000000000000000000000000000000000000000000000000000000000000000000000000000000000000000000000000000000000000000000000000000000000000000000000000000000000000000000000000000000000000000000000000000000000000000000000000000000000000000000000000000000000000000000000000000000000000000000000000000000000000000000000000000000000000000000000000000000000000000000000000000000000000000000000000000000000000000000000000000000000000000000000000000000000000000000000000000000000000000000000000000000000000000000000000000000000000000000000000000000000000000000000000000000000000000000000000000000000000000000000000000000000000000000000000000000000000000000000000000000000000000000000000000000000000000000000000000000000000000000000000000000000000000000000000000000000000000000000000000000000000000000000000000000000000000000000000000000000000000000000000000000000000000000000000000000000000000000000000000000000000000000000000000000000000000000000000000000000000000000000000000000000000000000000000000000000000000000000000000000000000000000000000000000000000000000000000000000000000000000000000000000000000000000000000000000000000000000000000010000000000000001000000000000000100000000000000010000000000000001000000000000000100000000000000010000000000000001000000000000000100000000000000010000000000000001000000000000000200000000000000020000000000000002000000000000000200000000000000020000000000000002000000000000000200000000000000020000000000000002000000000000000200000000000000030000000000000003000000000000000300000000000000030000000000000003000000000000000300000000000000030000000000000003000000000000000300000000000000030000000000000003000000000000000300000000000000030000000000000003000000000000000300000000000000030000000000000003000000000000000300000000000000030000000000000003000000000000000300000000000000030000000000000003000000000000000300000000000000030000000000000003000000000000000300000000000000030000000000000003000000000000000300000000000000030000000000000003000000000000000000000000000000000000000000000000000000000000000000000000000000000000000000000000000000000000000000000000000000000000000000000000000000000000000000000000000000000000000000000000000000000000000000000000000000000000000000000000000000000000000000000000000000000000000000000000000000000000000000000000000000000000000000000000000000000000000000000000000000000000000000000000000000000000000000000000000000000000000000000000000000000000000000000000000000000000000000000000000000000000000000000000000000000000000000000000000000000000000000000000000000000000000000000000000000000000000000000000000000000000000000000000000000000000000000000000000000000000000000000000000000000000000000000000000000000000000000000000000000000000000000000000000000000000000000000000000000000000000000000000000000000000000000000000000000000000000000000000000000000000000000000000000000000000000000000000000000000000000000000000000000000000000000000000000000000000000000000000000000000000000000000000000000000000000000000000000000000000000000000000000000000000000000000000000000000000000100000000000000010000000000000001000000000000000100000000000000010000000000000001000000000000000100000000000000010000000000000001000000000000000100000000000000010000000000000002000000000000000200000000000000020000000000000002000000000000000200000000000000020000000000000002000000000000000200000000000000020000000000000002000000000000000300000000000000030000000000000003000000000000000300000000000000030000000000000003000000000000000300000000000000030000000000000003000000000000000300000000000000030000000000000003000000000000000300000000000000030000000000000003000000000000000300000000000000030000000000000003000000000000000300000000000000030000000000000003000000000000000300000000000000030000000000000003000000000000000300000000000000030000000000000003000000000000000300000000000000030000000000000003000000000000000300000000000000030000000000000003000000000000000300000000000000030000000000000003000000000000000300000000000000030000000000000003000000000000000300000000000000030000000000000000000000000000000000000000000000000000000000000000000000000000000000000000000000000000000000000000000000000000000000000000000000000000000000000000000000000000000000000000000000000000000000000000000000000000000000000000000000000000000000000000000000000000000000000000000000000000000000000000000000000000000000000000000000000000000000000000000000000000000000000000000000000000000000000000000000000000000000000000000000000000000000000000000000000000000000000000000000000000000000000000000000000000000000000000000000000000000000000000000000000000000000000000000000000000000000000000000000000000000000000000000000000000000000000000000000000000000000000000000000000000000000000000000000000000000000000000000000000000000000000000000000000000000000000000000000000000000000000000000000000000000000000000000000000000000000000000000000000000000000000000000000000000000000000000000000000000000000000000000000000000000000000000000000000000000000000000000000000000000000000000000000000000000000000000000000000000000000000000000000000000000000000000000000000000000000000000000000000000000000000000000000000000000000000000000000000000000000000000000000000000000000000001000000000000000100000000000000010000000000000001000000000000000100000000000000010000000000000001000000000000000100000000000000010000000000000001000000000000000200000000000000020000000000000002000000000000000200000000000000020000000000000002000000000000000200000000000000020000000000000002000000000000000200000000000000020000000000000003000000000000000300000000000000030000000000000003000000000000000300000000000000030000000000000003000000000000000300000000000000030000000000000003000000000000000300000000000000030000000000000003000000000000000300000000000000030000000000000003000000000000000300000000000000030000000000000003000000000000000300000000000000030000000000000003000000000000000300000000000000030000000000000003000000000000000300000000000000030000000000000003000000000000000300000000000000030000000000000003000000000000000300000000000000030000000000000003000000000000000300000000000000000000000000000000000000000000000000000000000000000000000000000000000000000000000000000000000000000000000000000000000000000000000000000000000000000000000000000000000000000000000000000000000000000000000000000000000000000000000000000000000000000000000000000000000000000000000000000000000000000000000000000000000000000000000000000000000000000000000000000000000000000000000000000000000000000000000000000000000000000000000000000000000000000000000000000000000000000000000000000000000000000000000000000000000000000000000000000000000000000000000000000000000000000000000000000000000000000000000000000000000000000000000000000000000000000000000000000000000000000000000000000000000000000000000000000000000000000000000000000000000000000000000000000000000000000000000000000000000000000000000000000000000000000000000000000000000000000000000000000000000000000000000000000000000000000000000000000000000000000000000000000000000000000000000000000000000000000000000000000000000000000000000000000000000000000000000000000000000000000000000000000000000000000000000100000000000000010000000000000001000000000000000100000000000000010000000000000001000000000000000100000000000000010000000000000001000000000000000100000000000000020000000000000002000000000000000200000000000000020000000000000002000000000000000200000000000000020000000000000002000000000000000200000000000000020000000000000002000000000000000300000000000000030000000000000003000000000000000300000000000000030000000000000003000000000000000300000000000000030000000000000003000000000000000300000000000000030000000000000003000000000000000300000000000000030000000000000003000000000000000300000000000000030000000000000003000000000000000300000000000000030000000000000003000000000000000300000000000000030000000000000003000000000000000300000000000000030000000000000003000000000000000300000000000000030000000000000003000000000000000300000000000000030000000000000003000000000000000300000000000000030000000000000003000000000000000300000000000000030000000000000003000000000000000300000000000000030000000000000003000000000000000000000000000000000000000000000000000000000000000000000000000000000000000000000000000000000000000000000000000000000000000000000000000000000000000000000000000000000000000000000000000000000000000000000000000000000000000000000000000000000000000000000000000000000000000000000000000000000000000000000000000000000000000000000000000000000000000000000000000000000000000000000000000000000000000000000000000000000000000000000000000000000000000000000000000000000000000000000000000000000000000000000000000000000000000000000000000000000000000000000000000000000000000000000000000000000000000000000000000000000000000000000000000000000000000000000000000000000000000000000000000000000000000000000000000000000000000000000000000000000000000000000000000000000000000000000000000000000000000000000000000000000000000000000000000000000000000000000000000000000000000000000000000000000000000000000000000000000000000000000000000000000000000000000000000000000000000000000000000000000000000000000000000000000000000000000000000000000000000000000000000000010000000000000001000000000000000100000000000000010000000000000001000000000000000100000000000000010000000000000001000000000000000100000000000000020000000000000002000000000000000200000000000000020000000000000002000000000000000200000000000000020000000000000002000000000000000200000000000000020000000000000003000000000000000300000000000000030000000000000003000000000000000300000000000000030000000000000003000000000000000300000000000000030000000000000003000000000000000300000000000000030000000000000003000000000000000300000000000000030000000000000003000000000000000300000000000000030000000000000003000000000000000300000000000000030000000000000003000000000000000300000000000000030000000000000003000000000000000300000000000000030000000000000003000000000000000300000000000000030000000000000003000000000000000300000000000000030000000000000003000000000000000300000000000000030000000000000003000000000000000300000000000000030000000000000003000000000000000300000000000000030000000000000003000000000000000300000000000000030000000000000000000000000000000000000000000000000000000000000000000000000000000000000000000000000000000000000000000000000000000000000000000000000000000000000000000000000000000000000000000000000000000000000000000000000000000000000000000000000000000000000000000000000000000000000000000000000000000000000000000000000000000000000000000000000000000000000000000000000000000000000000000000000000000000000000000000000000000000000000000000000000000000000000000000000000000000000000000000000000000000000000000000000000000000000000000000000000000000000000000000000000000000000000000000000000000000000000000000000000000000000000000000000000000000000000000000000000000000000000000000000000000000000000000000000000000000000000000000000000000000000000000000000000000000000000000000000000000000000000000000000000000000000000000000000000000000000000000000000000000000000000000000000000000000000000000000000000000000000000000000000000000000000000000000000000000000000000000000000000000000000000000000000000000000000000000000010000000000000001000000000000000100000000000000010000000000000001000000000000000100000000000000010000000000000001000000000000000200000000000000020000000000000002000000000000000200000000000000020000000000000002000000000000000200000000000000020000000000000002000000000000000200000000000000020000000000000003000000000000000300000000000000030000000000000003000000000000000300000000000000030000000000000003000000000000000300000000000000030000000000000003000000000000000300000000000000030000000000000003000000000000000300000000000000030000000000000003000000000000000300000000000000030000000000000003000000000000000300000000000000030000000000000003000000000000000300000000000000030000000000000003000000000000000300000000000000030000000000000003000000000000000300000000000000030000000000000003000000000000000300000000000000030000000000000003000000000000000300000000000000030000000000000003000000000000000300000000000000030000000000000003000000000000000300000000000000030000000000000003000000000000000300000000000000030000000000000003000000000000000300000000000000000000000000000000000000000000000000000000000000000000000000000000000000000000000000000000000000000000000000000000000000000000000000000000000000000000000000000000000000000000000000000000000000000000000000000000000000000000000000000000000000000000000000000000000000000000000000000000000000000000000000000000000000000000000000000000000000000000000000000000000000000000000000000000000000000000000000000000000000000000000000000000000000000000000000000000000000000000000000000000000000000000000000000000000000000000000000000000000000000000000000000000000000000000000000000000000000000000000000000000000000000000000000000000000000000000000000000000000000000000000000000000000000000000000000000000000000000000000000000000000000000000000000000000000000000000000000000000000000000000000000000000000000000000000000000000000000000000000000000000000000000000000000000000000000000000000000000000000000000000000000000000000000000000000000000000000000000000000000000000000000010000000000000001000000000000000100000000000000010000000000000000000000000000000000000000000000000000000000000001000000000000000100000000000000010000000000000001000000000000000100000000000000010000000000000001000000000000000100000000000000010000000000000001000000000000000100000000000000020000000000000002000000000000000200000000000000020000000000000002000000000000000200000000000000020000000000000002000000000000000200000000000000020000000000000003000000000000000300000000000000030000000000000003000000000000000300000000000000030000000000000003000000000000000300000000000000030000000000000003000000000000000300000000000000030000000000000003000000000000000300000000000000030000000000000003000000000000000300000000000000030000000000000003000000000000000300000000000000030000000000000003000000000000000300000000000000030000000000000003000000000000000300000000000000030000000000000003000000000000000300000000000000030000000000000003000000000000000300000000000000030000000000000003000000000000000300000000000000030000000000000003000000000000000300000000000000030000000000000003000000000000000000000000000000000000000000000000000000000000000000000000000000000000000000000000000000000000000000000000000000000000000000000000000000000000000000000000000000000000000000000000000000000000000000000000000000000000000000000000000000000000000000000000000000000000000000000000000000000000000000000000000000000000000000000000000000000000000000000000000000000000000000000000000000000000000000000000000000000000000000000000000000000000000000000000000000000000000000000000000000000000000000000000000000000000000000000000000000000000000000000000000000000000000000000000000000000000000000000000000000000000000000000000000000000000000000000000000000000000000000000000000000000000000000000000000000000000000000000000000000000000000000000000000000000000000000000000000000000000000000000000000000000000000000000000000000000000000000000000000000000000000000000000000000000000000000000000000000000000000000000000000000000000000000000000000000000000000000000000000000000000000000000000000000000000000000000000000000000000000000000000000000"> : tensor<23x128xi64>
    %1 = "FHELinalg.apply_mapped_lookup_table"(%0, %cst_1, %cst_0) : (tensor<1x30x!FHE.esint<7>>, tensor<23x128xi64>, tensor<1x30xindex>) -> tensor<1x30x!FHE.eint<7>>
    %cst_2 = arith.constant dense<"0x0303030F0E0F000000030200000D0E000D0102020E0D00000F01010F0100010203030002000E030201010E0F0F01020D0F0E000203010E0E000E000103010102010F000D0D0000000E0F02000E0002000D030D0D0F010E020F0F03020E0D0D0F00000E020E0E030100020100020E0E010E030F0F000200000E010F0F0201030F01010D02020D0E0E000F0F00020102020001000E020100000E0101010F0F0001000E030E0102010201000D0E00000F0E02030300010F0D0F0000030001020D02000D000000000F0E0E02030300010E000D010E000102020D020F0E0E02010E0D0D020F01010F0F010F0F020F01010D0E0F0002030F0103020F01000101010F0D0F0E0D010F0D0E0E000E010E0E0E00000E000F02010D0201000D020F000F0F010F00020E020E020202010D0D01020E000F00000F020E0E010E00010201020003000E02030300020D0E02030F0E0E0F0E020F030E0D0F02010E0F010103020000000001020E000F0102030D000F0E0D02010E0001010E020201020D020F0F0E02010E0D000201000200010E0F000F00020D020D020F000F03010D0F0E020202030E01000F0D0302020E02020201020F00000003000E020203020101010D02020203030F0D010E000202030F0D010201010F01010F010101000D000F00010301000F030202000D0F0D0E00010F010E000D0F01020F02010F00020E000002000D01010303010E0E0D010103000E0102000E0E0302020F000E01000F01020F0F0F0301000F0D0F01030D000F0F0F010D000F030E0F0302030E0F0E000E0E010F020F0D0E0F0D0F0F0F01030E0F0F020D0E0F0D0F0E0D030D0002000F0F010200030E0E0D0D0203010F0F000000000F010F030E02020100020E020E0101000E020F00020F00010D000F000301010E0F020E0F0D00010F0F0D000D0F01000F0F0F03020F0D0E0202020300000E0101030D000E0202000000010D010F0F0E0002030E020E000D0F0D0E0F0F010E01020D01000F01000E0D020F02030001020F0103010F03010E02000D0E0201010E0203010D0F030003000D020D03010F0E03000D0F020D0F0E0E020E0E0D03000D000E0F0000020200020200030103030102000101010E0F030D010D000E000201020F020D030001020E000E010002010F0F03030D0E010F0F01010F00000E0E010F0F0F0001000E0300000F0E000E02000F0100030E0F0E0F0F000E0E0F02000F0F000F010201020F0D0100010E0E0D0F0E010E000301020202"> : tensor<30x30xi4>
    %2 = "FHELinalg.to_signed"(%1) : (tensor<1x30x!FHE.eint<7>>) -> tensor<1x30x!FHE.esint<7>>
    %3 = "FHELinalg.matmul_eint_int"(%2, %cst_2) : (tensor<1x30x!FHE.esint<7>>, tensor<30x30xi4>) -> tensor<1x30x!FHE.esint<7>>
    %cst_3 = arith.constant dense<[[0, 1, 2, 3, 4, 5, 6, 7, 8, 9, 10, 11, 12, 13, 14, 12, 15, 16, 17, 18, 19, 16, 20, 21, 20, 22, 23, 8, 14, 24]]> : tensor<1x30xindex>
    %cst_4 = arith.constant dense<"0x000000000000000000000000000000000000000000000000000000000000000000000000000000000000000000000000000000000000000000000000000000000000000000000000010000000000000001000000000000000100000000000000010000000000000001000000000000000100000000000000010000000000000001000000000000000100000000000000010000000000000001000000000000000100000000000000010000000000000001000000000000000100000000000000010000000000000002000000000000000200000000000000020000000000000002000000000000000200000000000000020000000000000002000000000000000200000000000000020000000000000002000000000000000200000000000000020000000000000002000000000000000200000000000000020000000000000002000000000000000300000000000000030000000000000003000000000000000300000000000000030000000000000003000000000000000300000000000000030000000000000003000000000000000300000000000000030000000000000003000000000000000300000000000000030000000000000003000000000000000300000000000000030000000000000003000000000000000300000000000000030000000000000003000000000000000300000000000000030000000000000000000000000000000000000000000000000000000000000000000000000000000000000000000000000000000000000000000000000000000000000000000000000000000000000000000000000000000000000000000000000000000000000000000000000000000000000000000000000000000000000000000000000000000000000000000000000000000000000000000000000000000000000000000000000000000000000000000000000000000000000000000000000000000000000000000000000000000000000000000000000000000000000000000000000000000000000000000000000000000000000000000000000000000000000000000000000000000000000000000000000000000000000000000000000000000000000000000000000000000000000000000000000000000000000000000000000000000000000000000000000000000000000000000000000000000000000000000000000000000000000000000000000000000000000000000000000000000000000000000000000000000000000000000000000000000000000000000000000000000000000000000000000000000000000000000000000000000000000000000000000000000000000000000000000000000000000000000000000000000000000000000000000000000000000000000000000000000000000000000000000000000000000000000000000000000000000001000000000000000100000000000000010000000000000001000000000000000100000000000000010000000000000001000000000000000100000000000000010000000000000001000000000000000100000000000000010000000000000001000000000000000100000000000000010000000000000001000000000000000200000000000000020000000000000002000000000000000200000000000000020000000000000002000000000000000200000000000000020000000000000002000000000000000200000000000000020000000000000002000000000000000200000000000000020000000000000002000000000000000200000000000000020000000000000003000000000000000300000000000000030000000000000003000000000000000300000000000000030000000000000003000000000000000300000000000000030000000000000003000000000000000300000000000000030000000000000003000000000000000300000000000000030000000000000003000000000000000300000000000000030000000000000003000000000000000300000000000000030000000000000003000000000000000300000000000000030000000000000003000000000000000300000000000000030000000000000003000000000000000300000000000000000000000000000000000000000000000000000000000000000000000000000000000000000000000000000000000000000000000000000000000000000000000000000000000000000000000000000000000000000000000000000000000000000000000000000000000000000000000000000000000000000000000000000000000000000000000000000000000000000000000000000000000000000000000000000000000000000000000000000000000000000000000000000000000000000000000000000000000000000000000000000000000000000000000000000000000000000000000000000000000000000000000000000000000000000000000000000000000000000000000000000000000000000000000000000000000000000000000000000000000000000000000000000000000000000000000000000000000000000000000000000000000000000000000000000000000000000000000000000000000000000000000000000000000000000000000000000000000000000000000000000000000000000000000000000000000000000000000000000000000000000000000000000000000000000000000000000000000000000000000000000000000000000000000000000000000000000000000000000000000000000000000000000000000000000000000000000000000000000000000000000001000000000000000100000000000000010000000000000001000000000000000100000000000000010000000000000001000000000000000100000000000000010000000000000001000000000000000100000000000000010000000000000001000000000000000100000000000000010000000000000002000000000000000200000000000000020000000000000002000000000000000200000000000000020000000000000002000000000000000200000000000000020000000000000002000000000000000200000000000000020000000000000002000000000000000200000000000000020000000000000002000000000000000300000000000000030000000000000003000000000000000300000000000000030000000000000003000000000000000300000000000000030000000000000003000000000000000300000000000000030000000000000003000000000000000300000000000000030000000000000003000000000000000300000000000000030000000000000003000000000000000300000000000000030000000000000003000000000000000300000000000000030000000000000003000000000000000300000000000000030000000000000003000000000000000300000000000000030000000000000003000000000000000300000000000000030000000000000003000000000000000000000000000000000000000000000000000000000000000000000000000000000000000000000000000000000000000000000000000000000000000000000000000000000000000000000000000000000000000000000000000000000000000000000000000000000000000000000000000000000000000000000000000000000000000000000000000000000000000000000000000000000000000000000000000000000000000000000000000000000000000000000000000000000000000000000000000000000000000000000000000000000000000000000000000000000000000000000000000000000000000000000000000000000000000000000000000000000000000000000000000000000000000000000000000000000000000000000000000000000000000000000000000000000000000000000000000000000000000000000000000000000000000000000000000000000000000000000000000000000000000000000000000000000000000000000000000000000000000000000000000000000000000000000000000000000000000000000000000000000000000000000000000000000000000000000000000000000000000000000000000000000000000000000000000000000000000000000000000000000000000000000000000000000000000000000001000000000000000100000000000000000000000000000000000000000000000000000000000000000000000000000000000000000000000000000000000000000000000000000000000000000000000000000000000000000000000000000001000000000000000100000000000000010000000000000001000000000000000100000000000000010000000000000001000000000000000100000000000000010000000000000001000000000000000100000000000000010000000000000001000000000000000100000000000000010000000000000001000000000000000200000000000000020000000000000002000000000000000200000000000000020000000000000002000000000000000200000000000000020000000000000002000000000000000200000000000000020000000000000002000000000000000200000000000000020000000000000002000000000000000200000000000000020000000000000003000000000000000300000000000000030000000000000003000000000000000300000000000000030000000000000003000000000000000300000000000000030000000000000003000000000000000300000000000000030000000000000003000000000000000300000000000000030000000000000003000000000000000300000000000000030000000000000003000000000000000300000000000000030000000000000000000000000000000000000000000000000000000000000000000000000000000000000000000000000000000000000000000000000000000000000000000000000000000000000000000000000000000000000000000000000000000000000000000000000000000000000000000000000000000000000000000000000000000000000000000000000000000000000000000000000000000000000000000000000000000000000000000000000000000000000000000000000000000000000000000000000000000000000000000000000000000000000000000000000000000000000000000000000000000000000000000000000000000000000000000000000000000000000000000000000000000000000000000000000000000000000000000000000000000000000000000000000000000000000000000000000000000000000000000000000000000000000000000000000000000000000000000000000000000000000000000000000000000000000000000000000000000000000000000000000000000000000000000000000000000000000000000000000000000000000000000000000000000000000000000000000000000000000000000000000000000000000000000000000000000000000000000000000000000000000000000000000000000000000000000000000000000000000000000000000000000000000000000000000000000000000000000000000000000000000000000000000000000000000000000000000000000000000000000000000000000000000000000000000000000000000000000000000000000000000000000000000000000000000000000000000000000000000000000000000000000000000000000000000000000000000000000000000000000000000000000000010000000000000001000000000000000100000000000000010000000000000001000000000000000100000000000000010000000000000001000000000000000100000000000000010000000000000001000000000000000100000000000000010000000000000001000000000000000100000000000000010000000000000001000000000000000200000000000000020000000000000002000000000000000200000000000000020000000000000002000000000000000200000000000000020000000000000002000000000000000200000000000000020000000000000002000000000000000200000000000000020000000000000002000000000000000200000000000000030000000000000003000000000000000300000000000000030000000000000003000000000000000300000000000000030000000000000003000000000000000300000000000000030000000000000003000000000000000300000000000000000000000000000000000000000000000000000000000000000000000000000000000000000000000000000000000000000000000000000000000000000000000000000000000000000000000000000000000000000000000000000000000000000000000000000000000000000000000000000000000000000000000000000000000000000000000000000000000000000000000000000000000000000000000000000000000000000000000000000000000000000000000000000000000000000000000000000000000000000000000000000000000000000000000000000000000000000000000000000000000000000000000000000000000000000000000000000000000000000000000000000000000000000000000000000000000000000000000000000000000000000000000000000000000000000000000000000000000000000000000000000000000000000000000000000000000000000000000000000000000000000000000000000000000000000000000000000000000000000000000000000000000000000000000000000000000000000000000000000000000000000000000000000000000000000000000000000000000000000000000000000000000000000000000000000000000000000000000000000000000000000000000000000000000000000000000000000000000000000000000000000000000000000000000000000000000000000000000000000000000000000000000000000000000000000000000000000000000000000000000000000000000000000000000000000000000000000000000000000000000000000000000000000000000000000000000000000000000000000000000000000000000000000000000000000000000000000000000000000000000000000000000000000000000000000000000000000001000000000000000100000000000000010000000000000001000000000000000100000000000000010000000000000001000000000000000100000000000000010000000000000001000000000000000100000000000000010000000000000001000000000000000100000000000000010000000000000001000000000000000200000000000000020000000000000002000000000000000200000000000000020000000000000002000000000000000200000000000000020000000000000002000000000000000200000000000000020000000000000002000000000000000200000000000000020000000000000002000000000000000200000000000000020000000000000003000000000000000300000000000000030000000000000003000000000000000300000000000000030000000000000003000000000000000300000000000000030000000000000003000000000000000000000000000000000000000000000000000000000000000000000000000000000000000000000000000000000000000000000000000000000000000000000000000000000000000000000000000000000000000000000000000000000000000000000000000000000000000000000000000000000000000000000000000000000000000000000000000000000000000000000000000000000000000000000000000000000000000000000000000000000000000000000000000000000000000000000000000000000000000000000000000000000000000000000000000000000000000000000000000000000000000000000000000000000000000000000000000000000000000000000000000000000000000000000000000000000000000000000000000000000000000000000000000000000000000000000000000000000000000000000000000000000000000000000000000000000000000000000000000000000000000000000000000000000000000000000000000000000000000000000000000000000000000000000000000000000000000000000000000000000000000000000000000000000000000000000000000000000000000000000000000000000000000000000000000000000000000000000000000000000000000000000000000000000000000000000000000000000000000000000000000000000000000000000000000000000000000000000000000000000000000000000000000000000000000000000000000000000000000000000000000000000000000000000000000000000000000000000000000000000000000000000000000000000000000000000000000000000000000000000000000000000000000000000000000000000000000000000000000000000000000000000000000000000000000100000000000000010000000000000001000000000000000100000000000000010000000000000001000000000000000100000000000000010000000000000001000000000000000100000000000000010000000000000001000000000000000100000000000000010000000000000001000000000000000100000000000000020000000000000002000000000000000200000000000000020000000000000002000000000000000200000000000000020000000000000002000000000000000200000000000000020000000000000002000000000000000200000000000000020000000000000002000000000000000200000000000000020000000000000003000000000000000300000000000000030000000000000003000000000000000300000000000000030000000000000003000000000000000300000000000000030000000000000003000000000000000300000000000000030000000000000000000000000000000000000000000000000000000000000000000000000000000000000000000000000000000000000000000000000000000000000000000000000000000000000000000000000000000000000000000000000000000000000000000000000000000000000000000000000000000000000000000000000000000000000000000000000000000000000000000000000000000000000000000000000000000000000000000000000000000000000000000000000000000000000000000000000000000000000000000000000000000000000000000000000000000000000000000000000000000000000000000000000000000000000000000000000000000000000000000000000000000000000000000000000000000000000000000000000000000000000000000000000000000000000000000000000000000000000000000000000000000000000000000000000000000000000000000000000000000000000000000000000000000000000000000000000000000000000000000000000000000000000000000000000000000000000000000000000000000000000000000000000000000000000000000000000000000000000000000000000000000000000000000000000000000000000000000000000000000000000000000000000000000000000000000000000000000000000000000000000000000000000000000000000000000000000000000000000000000000000000000000000000000000000000000000000000000000000000000000000000000000000000000000000000000000000000000000000000000000000000000000000000000000000000000000000000000000000000000000000000000000000000000000000000000000000000000000000000000100000000000000010000000000000001000000000000000100000000000000010000000000000001000000000000000100000000000000010000000000000001000000000000000100000000000000010000000000000001000000000000000100000000000000010000000000000001000000000000000100000000000000010000000000000002000000000000000200000000000000020000000000000002000000000000000200000000000000020000000000000002000000000000000200000000000000020000000000000002000000000000000200000000000000020000000000000002000000000000000200000000000000020000000000000002000000000000000300000000000000030000000000000003000000000000000300000000000000030000000000000003000000000000000300000000000000030000000000000003000000000000000300000000000000030000000000000003000000000000000300000000000000000000000000000000000000000000000000000000000000000000000000000000000000000000000000000000000000000000000000000000000000000000000000000000000000000000000000000000000000000000000000000000000000000000000000000000000000000000000000000000000000000000000000000000000000000000000000000000000000000000000000000000000000000000000000000000000000000000000000000000000000000000000000000000000000000000000000000000000000000000000000000000000000000000000000000000000000000000000000000000000000000000000000000000000000000000000000000000000000000000000000000000000000000000000000000000000000000000000000000000000000000000000000000000000000000000000000000000000000000000000000000000000000000000000000000000000000000000000000000000000000000000000000000000000000000000000000000000000000000000000000000000000000000000000000000000000000000000000000000000000000000000000000000000000000000000000000000000000000000000000000000000000000000000000000000000000000000000000000000000000000000000000000000000000000000000000000000000000000000000000000000000000000000000000000000000000000000000000000000000000000000000000000000000000000000000000000000000000000000000000000000000000000000000000000000001000000000000000100000000000000010000000000000001000000000000000100000000000000010000000000000001000000000000000100000000000000010000000000000001000000000000000100000000000000010000000000000001000000000000000100000000000000010000000000000001000000000000000200000000000000020000000000000002000000000000000200000000000000020000000000000002000000000000000200000000000000020000000000000002000000000000000200000000000000020000000000000002000000000000000200000000000000020000000000000002000000000000000200000000000000020000000000000003000000000000000300000000000000030000000000000003000000000000000300000000000000030000000000000003000000000000000300000000000000030000000000000003000000000000000300000000000000030000000000000003000000000000000300000000000000030000000000000003000000000000000300000000000000030000000000000003000000000000000300000000000000030000000000000003000000000000000000000000000000000000000000000000000000000000000000000000000000000000000000000000000000000000000000000000000000000000000000000000000000000000000000000000000000000000000000000000000000000000000000000000000000000000000000000000000000000000000000000000000000000000000000000000000000000000000000000000000000000000000000000000000000000000000000000000000000000000000000000000000000000000000000000000000000000000000000000000000000000000000000000000000000000000000000000000000000000000000000000000000000000000000000000000000000000000000000000000000000000000000000000000000000000000000000000000000000000000000000000000000000000000000000000000000000000000000000000000000000000000000000000000000000000000000000000000000000000000000000000000000000000000000000000000000000000000000000000000000000000000000000000000000000000000000000000000000000000000000000000000000000000000000000000000000000000000000000000000000000000000000000000000000000000000000000000000000000000000000000000000000000000000000000000000000000000000000000000000000000000000000000000001000000000000000100000000000000010000000000000001000000000000000100000000000000010000000000000001000000000000000100000000000000010000000000000001000000000000000100000000000000010000000000000001000000000000000100000000000000010000000000000001000000000000000200000000000000020000000000000002000000000000000200000000000000020000000000000002000000000000000200000000000000020000000000000002000000000000000200000000000000020000000000000002000000000000000200000000000000020000000000000002000000000000000200000000000000030000000000000003000000000000000300000000000000030000000000000003000000000000000300000000000000030000000000000003000000000000000300000000000000030000000000000003000000000000000300000000000000030000000000000003000000000000000300000000000000030000000000000003000000000000000300000000000000030000000000000003000000000000000300000000000000030000000000000003000000000000000300000000000000030000000000000003000000000000000300000000000000030000000000000003000000000000000300000000000000030000000000000000000000000000000000000000000000000000000000000000000000000000000000000000000000000000000000000000000000000000000000000000000000000000000000000000000000000000000000000000000000000000000000000000000000000000000000000000000000000000000000000000000000000000000000000000000000000000000000000000000000000000000000000000000000000000000000000000000000000000000000000000000000000000000000000000000000000000000000000000000000000000000000000000000000000000000000000000000000000000000000000000000000000000000000000000000000000000000000000000000000000000000000000000000000000000000000000000000000000000000000000000000000000000000000000000000000000000000000000000000000000000000000000000000000000000000000000000000000000000000000000000000000000000000000000000000000000000000000000000000000000000000000000000000000000000000000000000000000000000000000000000000000000000000000000000000000000000000000000000000000000000000000000000000000000000000000000000000000000000000000000000000000000000000000000000000000000000000000000000000000000000000000000000000000000000000000000000000000000000000000000000000000000000000000000000000000000000000000000000000000000000000000000000000000000000000000000000000000000000000000000000000000000000000000000000000000000000000000000000000000000000000000000000000000000000000000000000000000000000000100000000000000010000000000000001000000000000000100000000000000010000000000000001000000000000000100000000000000010000000000000001000000000000000100000000000000010000000000000001000000000000000100000000000000010000000000000001000000000000000100000000000000020000000000000002000000000000000200000000000000020000000000000002000000000000000200000000000000020000000000000002000000000000000200000000000000020000000000000002000000000000000200000000000000020000000000000002000000000000000200000000000000020000000000000002000000000000000300000000000000030000000000000003000000000000000300000000000000030000000000000003000000000000000300000000000000030000000000000003000000000000000300000000000000030000000000000003000000000000000300000000000000000000000000000000000000000000000000000000000000000000000000000000000000000000000000000000000000000000000000000000000000000000000000000000000000000000000000000000000000000000000000000000000000000000000000000000000000000000000000000000000000000000000000000000000000000000000000000000000000000000000000000000000000000000000000000000000000000000000000000000000000000000000000000000000000000000000000000000000000000000000000000000000000000000000000000000000000000000000000000000000000000000000000000000000000000000000000000000000000000000000000000000000000000000000000000000000000000000000000000000000000000000000000000000000000000000000000000000000000000000000000000000000000000000000000000000000000000000000000000000000000000000000000000000000000000000000000000000000000000000000000000000000000000000000000000000000000000000000000000000000000000000000000000000000000000000000000000000000000000000000000000000000000000000000000000000000000000000000000000000000000000000000000000000000000000000000000000000000000000000000000000000000000000000000000000000000000000000000000000000000000000000000000000000000000000000000000000000000000000000000000000000000000000000000000000000000000000000000000000000000000000000000000000000000000000000000000000000000000000000000000000000000000000000000000000000000000010000000000000001000000000000000100000000000000010000000000000001000000000000000100000000000000010000000000000001000000000000000100000000000000010000000000000001000000000000000100000000000000010000000000000001000000000000000100000000000000010000000000000002000000000000000200000000000000020000000000000002000000000000000200000000000000020000000000000002000000000000000200000000000000020000000000000002000000000000000200000000000000020000000000000002000000000000000200000000000000020000000000000002000000000000000300000000000000030000000000000003000000000000000300000000000000030000000000000003000000000000000300000000000000030000000000000003000000000000000300000000000000030000000000000003000000000000000300000000000000030000000000000003000000000000000000000000000000000000000000000000000000000000000000000000000000000000000000000000000000000000000000000000000000000000000000000000000000000000000000000000000000000000000000000000000000000000000000000000000000000000000000000000000000000000000000000000000000000000000000000000000000000000000000000000000000000000000000000000000000000000000000000000000000000000000000000000000000000000000000000000000000000000000000000000000000000000000000000000000000000000000000000000000000000000000000000000000000000000000000000000000000000000000000000000000000000000000000000000000000000000000000000000000000000000000000000000000000000000000000000000000000000000000000000000000000000000000000000000000000000000000000000000000000000000000000000000000000000000000000000000000000000000000000000000000000000000000000000000000000000000000000000000000000000000000000000000000000000000000000000000000000000000000000000000000000000000000000000000000000000000000000000000000000000000000000000000000000000000000000000000000000000000000000000000000000000000000000000000000000000000000000000000000000000000000000000000000000000000000000000000000000000000000000000000000000000000000000000000000000000000000000000001000000000000000100000000000000010000000000000001000000000000000100000000000000010000000000000001000000000000000100000000000000010000000000000001000000000000000100000000000000010000000000000001000000000000000100000000000000010000000000000001000000000000000200000000000000020000000000000002000000000000000200000000000000020000000000000002000000000000000200000000000000020000000000000002000000000000000200000000000000020000000000000002000000000000000200000000000000020000000000000002000000000000000200000000000000030000000000000003000000000000000300000000000000030000000000000003000000000000000300000000000000030000000000000003000000000000000300000000000000030000000000000003000000000000000300000000000000030000000000000003000000000000000300000000000000030000000000000003000000000000000300000000000000030000000000000003000000000000000300000000000000030000000000000000000000000000000000000000000000000000000000000000000000000000000000000000000000000000000000000000000000000000000000000000000000000000000000000000000000000000000000000000000000000000000000000000000000000000000000000000000000000000000000000000000000000000000000000000000000000000000000000000000000000000000000000000000000000000000000000000000000000000000000000000000000000000000000000000000000000000000000000000000000000000000000000000000000000000000000000000000000000000000000000000000000000000000000000000000000000000000000000000000000000000000000000000000000000000000000000000000000000000000000000000000000000000000000000000000000000000000000000000000000000000000000000000000000000000000000000000000000000000000000000000000000000000000000000000000000000000000000000000000000000000000000000000000000000000000000000000000000000000000000000000000000000000000000000000000000000000000000000000000000000000000000000000000000000000000000000000000000000000000000000000000000000000000000000000000000000000000000000000000000000000000000000000000000000000000000000000000000000000000000000000000000000000000000000000000000000000000000000000000000000000000000000000000000000000000000000000000000000000000000000000000000000000000000000000000000000000000000000000000000000000000000000000000000000000000000000000000000000000000000000000000000000000000000000001000000000000000100000000000000010000000000000001000000000000000100000000000000010000000000000001000000000000000100000000000000010000000000000001000000000000000100000000000000010000000000000001000000000000000100000000000000010000000000000001000000000000000200000000000000020000000000000002000000000000000200000000000000020000000000000002000000000000000200000000000000020000000000000002000000000000000200000000000000020000000000000002000000000000000200000000000000020000000000000002000000000000000200000000000000020000000000000003000000000000000300000000000000030000000000000003000000000000000300000000000000030000000000000003000000000000000300000000000000030000000000000003000000000000000300000000000000000000000000000000000000000000000000000000000000000000000000000000000000000000000000000000000000000000000000000000000000000000000000000000000000000000000000000000000000000000000000000000000000000000000000000000000000000000000000000000000000000000000000000000000000000000000000000000000000000000000000000000000000000000000000000000000000000000000000000000000000000000000000000000000000000000000000000000000000000000000000000000000000000000000000000000000000000000000000000000000000000000000000000000000000000000000000000000000000000000000000000000000000000000000000000000000000000000000000000000000000000000000000000000000000000000000000000000000000000000000000000000000000000000000000000000000000000000000000000000000000000000000000000000000000000000000000000000000000000000000000000000000000000000000000000000000000000000000000000000000000000000000000000000000000000000000000000000000000000000000000000000000000000000000000000000000000000000000000000000000000000000000000000000000000000000000000000000000000000000000000000000000000000000000000000000000000000000000000000000000000000000000000000000000000000000000000000000000000000000000000000000000000000000000000000000000000000000000000000000000000000000000000000000000000000000000000000000000000000000000000000000000000000000000100000000000000010000000000000001000000000000000100000000000000010000000000000001000000000000000100000000000000010000000000000001000000000000000100000000000000010000000000000001000000000000000100000000000000010000000000000001000000000000000100000000000000010000000000000002000000000000000200000000000000020000000000000002000000000000000200000000000000020000000000000002000000000000000200000000000000020000000000000002000000000000000200000000000000020000000000000002000000000000000200000000000000020000000000000002000000000000000300000000000000030000000000000003000000000000000300000000000000030000000000000003000000000000000300000000000000030000000000000003000000000000000300000000000000030000000000000003000000000000000300000000000000030000000000000003000000000000000000000000000000000000000000000000000000000000000000000000000000000000000000000000000000000000000000000000000000000000000000000000000000000000000000000000000000000000000000000000000000000000000000000000000000000000000000000000000000000000000000000000000000000000000000000000000000000000000000000000000000000000000000000000000000000000000000000000000000000000000000000000000000000000000000000000000000000000000000000000000000000000000000000000000000000000000000000000000000000000000000000000000000000000000000000000000000000000000000000000000000000000000000000000000000000000000000000000000000000000000000000000000000000000000000000000000000000000000000000000000000000000000000000000000000000000000000000000000000000000000000000000000000000000000000000000000000000000000000000000000000000000000000000000000000000000000000000000000000000000000000000000000000000000000000000000000000000000000000000000000000000000000000000000000000000000000000000000000000000000000000000000000000000000000000000000000000000000000000000000000000000000000000000000000000000000000000000000000000000000000000000000000000000000000000000000000000000000000000000000000000000000000000000000000000010000000000000001000000000000000100000000000000010000000000000001000000000000000100000000000000010000000000000001000000000000000100000000000000010000000000000001000000000000000100000000000000010000000000000001000000000000000100000000000000010000000000000001000000000000000200000000000000020000000000000002000000000000000200000000000000020000000000000002000000000000000200000000000000020000000000000002000000000000000200000000000000020000000000000002000000000000000200000000000000020000000000000002000000000000000200000000000000030000000000000003000000000000000300000000000000030000000000000003000000000000000300000000000000030000000000000003000000000000000300000000000000030000000000000003000000000000000300000000000000030000000000000003000000000000000300000000000000030000000000000003000000000000000300000000000000030000000000000003000000000000000300000000000000030000000000000000000000000000000000000000000000000000000000000000000000000000000000000000000000000000000000000000000000000000000000000000000000000000000000000000000000000000000000000000000000000000000000000000000000000000000000000000000000000000000000000000000000000000000000000000000000000000000000000000000000000000000000000000000000000000000000000000000000000000000000000000000000000000000000000000000000000000000000000000000000000000000000000000000000000000000000000000000000000000000000000000000000000000000000000000000000000000000000000000000000000000000000000000000000000000000000000000000000000000000000000000000000000000000000000000000000000000000000000000000000000000000000000000000000000000000000000000000000000000000000000000000000000000000000000000000000000000000000000000000000000000000000000000000000000000000000000000000000000000000000000000000000000000000000000000000000000000000000000000000000000000000000000000000000000000000000000000000000000000000000000000000000000000000000000000000000000000000000000000000000000000000000000000000000010000000000000001000000000000000100000000000000010000000000000001000000000000000100000000000000010000000000000001000000000000000100000000000000010000000000000001000000000000000100000000000000010000000000000001000000000000000100000000000000010000000000000001000000000000000200000000000000020000000000000002000000000000000200000000000000020000000000000002000000000000000200000000000000020000000000000002000000000000000200000000000000020000000000000002000000000000000200000000000000020000000000000002000000000000000200000000000000030000000000000003000000000000000300000000000000030000000000000003000000000000000300000000000000030000000000000003000000000000000300000000000000030000000000000003000000000000000300000000000000030000000000000003000000000000000300000000000000030000000000000003000000000000000300000000000000030000000000000003000000000000000300000000000000030000000000000003000000000000000300000000000000030000000000000003000000000000000300000000000000030000000000000003000000000000000300000000000000000000000000000000000000000000000000000000000000000000000000000000000000000000000000000000000000000000000000000000000000000000000000000000000000000000000000000000000000000000000000000000000000000000000000000000000000000000000000000000000000000000000000000000000000000000000000000000000000000000000000000000000000000000000000000000000000000000000000000000000000000000000000000000000000000000000000000000000000000000000000000000000000000000000000000000000000000000000000000000000000000000000000000000000000000000000000000000000000000000000000000000000000000000000000000000000000000000000000000000000000000000000000000000000000000000000000000000000000000000000000000000000000000000000000000000000000000000000000000000000000000000000000000000000000000000000000000000000000000000000000000000000000000000000000000000000000000000000000000000000000000000000000000000000000000000000000000000000000000000000000000000000000000000000000000000000000000000000000000000000000000000000000000000000000000000000000000000000000000000000000000001000000000000000100000000000000010000000000000001000000000000000100000000000000010000000000000001000000000000000100000000000000010000000000000001000000000000000100000000000000010000000000000001000000000000000100000000000000010000000000000001000000000000000200000000000000020000000000000002000000000000000200000000000000020000000000000002000000000000000200000000000000020000000000000002000000000000000200000000000000020000000000000002000000000000000200000000000000020000000000000002000000000000000200000000000000030000000000000003000000000000000300000000000000030000000000000003000000000000000300000000000000030000000000000003000000000000000300000000000000030000000000000003000000000000000300000000000000030000000000000003000000000000000300000000000000030000000000000003000000000000000300000000000000030000000000000003000000000000000300000000000000030000000000000003000000000000000300000000000000030000000000000003000000000000000300000000000000030000000000000003000000000000000300000000000000030000000000000003000000000000000000000000000000000000000000000000000000000000000000000000000000000000000000000000000000000000000000000000000000000000000000000000000000000000000000000000000000000000000000000000000000000000000000000000000000000000000000000000000000000000000000000000000000000000000000000000000000000000000000000000000000000000000000000000000000000000000000000000000000000000000000000000000000000000000000000000000000000000000000000000000000000000000000000000000000000000000000000000000000000000000000000000000000000000000000000000000000000000000000000000000000000000000000000000000000000000000000000000000000000000000000000000000000000000000000000000000000000000000000000000000000000000000000000000000000000000000000000000000000000000000000000000000000000000000000000000000000000000000000000000000000000000000000000000000000000000000000000000000000000000000000000000000000000000000000000000000000000000000000000000000000000000000000000000000000000000000000000000000000000000000000000000000000000000000000000000000000000000000100000000000000010000000000000001000000000000000100000000000000010000000000000001000000000000000100000000000000010000000000000001000000000000000100000000000000010000000000000001000000000000000100000000000000010000000000000001000000000000000100000000000000010000000000000002000000000000000200000000000000020000000000000002000000000000000200000000000000020000000000000002000000000000000200000000000000020000000000000002000000000000000200000000000000020000000000000002000000000000000200000000000000020000000000000002000000000000000200000000000000030000000000000003000000000000000300000000000000030000000000000003000000000000000300000000000000030000000000000003000000000000000300000000000000030000000000000003000000000000000300000000000000030000000000000003000000000000000300000000000000030000000000000003000000000000000300000000000000030000000000000003000000000000000300000000000000030000000000000003000000000000000300000000000000030000000000000003000000000000000300000000000000030000000000000003000000000000000300000000000000030000000000000000000000000000000000000000000000000000000000000000000000000000000000000000000000000000000000000000000000000000000000000000000000000000000000000000000000000000000000000000000000000000000000000000000000000000000000000000000000000000000000000000000000000000000000000000000000000000000000000000000000000000000000000000000000000000000000000000000000000000000000000000000000000000000000000000000000000000000000000000000000000000000000000000000000000000000000000000000000000000000000000000000000000000000000000000000000000000000000000000000000000000000000000000000000000000000000000000000000000000000000000000000000000000000000000000000000000000000000000000000000000000000000000000000000000000000000000000000000000000000000000000000000000000000000000000000000000000000000000000000000000000000000000000000000000000000000000000000000000000000000000000000000000000000000000000000000000000000000000000000000000000000000000000000000000000000000000000000000000000000000000000000000000000000000000000000000000000000000000000000000000000000000000000000000000000000000000000000000000000000000000000000000000000000000000000000000000000000000000000000000000000000000000000000000000000000000000000000000000000000000000000000000000000000000000000000000000000000000000000000000000000000000000000000000000000000000000001000000000000000100000000000000010000000000000001000000000000000100000000000000010000000000000001000000000000000100000000000000010000000000000001000000000000000100000000000000010000000000000001000000000000000100000000000000010000000000000001000000000000000100000000000000020000000000000002000000000000000200000000000000020000000000000002000000000000000200000000000000020000000000000002000000000000000200000000000000020000000000000002000000000000000200000000000000020000000000000002000000000000000200000000000000020000000000000003000000000000000300000000000000030000000000000003000000000000000300000000000000030000000000000003000000000000000300000000000000030000000000000003000000000000000300000000000000030000000000000003000000000000000300000000000000000000000000000000000000000000000000000000000000000000000000000000000000000000000000000000000000000000000000000000000000000000000000000000000000000000000000000000000000000000000000000000000000000000000000000000000000000000000000000000000000000000000000000000000000000000000000000000000000000000000000000000000000000000000000000000000000000000000000000000000000000000000000000000000000000000000000000000000000000000000000000000000000000000000000000000000000000000000000000000000000000000000000000000000000000000000000000000000000000000000000000000000000000000000000000000000000000000000000000000000000000000000000000000000000000000000000000000000000000000000000000000000000000000000000000000000000000000000000000000000000000000000000000000000000000000000000000000000000000000000000000000000000000000000000000000000000000000000000000000000000000000000000000000000000000000000000000000000000000000000000000000000000000000000000000000000000000000000000000000000000000000000000000000000000000000000000000000000000000000000000000000000000000000000000000000000000000000000000000001000000000000000100000000000000010000000000000001000000000000000100000000000000010000000000000001000000000000000100000000000000010000000000000001000000000000000100000000000000010000000000000001000000000000000100000000000000010000000000000001000000000000000100000000000000020000000000000002000000000000000200000000000000020000000000000002000000000000000200000000000000020000000000000002000000000000000200000000000000020000000000000002000000000000000200000000000000020000000000000002000000000000000200000000000000020000000000000003000000000000000300000000000000030000000000000003000000000000000300000000000000030000000000000003000000000000000300000000000000030000000000000003000000000000000300000000000000030000000000000003000000000000000300000000000000030000000000000003000000000000000300000000000000030000000000000003000000000000000300000000000000030000000000000003000000000000000300000000000000030000000000000003000000000000000300000000000000030000000000000003000000000000000000000000000000000000000000000000000000000000000000000000000000000000000000000000000000000000000000000000000000000000000000000000000000000000000000000000000000000000000000000000000000000000000000000000000000000000000000000000000000000000000000000000000000000000000000000000000000000000000000000000000000000000000000000000000000000000000000000000000000000000000000000000000000000000000000000000000000000000000000000000000000000000000000000000000000000000000000000000000000000000000000000000000000000000000000000000000000000000000000000000000000000000000000000000000000000000000000000000000000000000000000000000000000000000000000000000000000000000000000000000000000000000000000000000000000000000000000000000000000000000000000000000000000000000000000000000000000000000000000000000000000000000000000000000000000000000000000000000000000000000000000000000000000000000000000000000000000000000000000000000000000000000000000000000000000000000000000000000000000000000000000000000000000000000000000000000000000000000000000000000000000000000000000000000000000000000000000000000000000000000000000000000000000000000000100000000000000010000000000000001000000000000000100000000000000010000000000000001000000000000000100000000000000010000000000000001000000000000000100000000000000010000000000000001000000000000000100000000000000010000000000000001000000000000000100000000000000020000000000000002000000000000000200000000000000020000000000000002000000000000000200000000000000020000000000000002000000000000000200000000000000020000000000000002000000000000000200000000000000020000000000000002000000000000000200000000000000020000000000000002000000000000000300000000000000030000000000000003000000000000000300000000000000030000000000000003000000000000000300000000000000030000000000000003000000000000000300000000000000030000000000000003000000000000000300000000000000030000000000000003000000000000000300000000000000030000000000000003000000000000000300000000000000030000000000000003000000000000000300000000000000030000000000000003000000000000000300000000000000030000000000000000000000000000000000000000000000000000000000000000000000000000000000000000000000000000000000000000000000000000000000000000000000000000000000000000000000000000000000000000000000000000000000000000000000000000000000000000000000000000000000000000000000000000000000000000000000000000000000000000000000000000000000000000000000000000000000000000000000000000000000000000000000000000000000000000000000000000000000000000000000000000000000000000000000000000000000000000000000000000000000000000000000000000000000000000000000000000000000000000000000000000000000000000000000000000000000000000000000000000000000000000000000000000000000000000000000000000000000000000000000000000000000000000000000000000000000000000000000000000000000000000000000000000000000000000000000000000000000000000000000000000000000000000000000000000000000000000000000000000000000000000000000000000000000000000000000000000000000000000000000000000000000000000000000000000000000000000000000000000000000000000000000000000000000000000000000000000000000000000000000000000000000000000000000000000000000000000000000000000000000000000000000000000000000000001000000000000000100000000000000010000000000000001000000000000000100000000000000010000000000000001000000000000000100000000000000010000000000000001000000000000000100000000000000010000000000000001000000000000000100000000000000010000000000000001000000000000000100000000000000020000000000000002000000000000000200000000000000020000000000000002000000000000000200000000000000020000000000000002000000000000000200000000000000020000000000000002000000000000000200000000000000020000000000000002000000000000000200000000000000020000000000000003000000000000000300000000000000030000000000000003000000000000000300000000000000030000000000000003000000000000000300000000000000030000000000000003000000000000000300000000000000030000000000000003000000000000000300000000000000030000000000000003000000000000000300000000000000030000000000000003000000000000000300000000000000030000000000000003000000000000000300000000000000030000000000000003000000000000000300000000000000000000000000000000000000000000000000000000000000000000000000000000000000000000000000000000000000000000000000000000000000000000000000000000000000000000000000000000000000000000000000000000000000000000000000000000000000000000000000000000000000000000000000000000000000000000000000000000000000000000000000000000000000000000000000000000000000000000000000000000000000000000000000000000000000000000000000000000000000000000000000000000000000000000000000000000000000000000000000000000000000000000000000000000000000000000000000000000000000000000000000000000000000000000000000000000000000000000000000000000000000000000000000000000000000000000000000000000000000000000000000000000000000000000000000000000000000000000000000000000000000000000000000000000000000000000000000000000000000000000000000000000000000000000000000000000000000000000000000000000000000000000000000000000000000000000000000000000000000000000000000000000000000000000000000000000000000000000000000000000000000000000000000000000000000000000000000000000000000000000000000000000000000000000000000000000000000000000000000000000000000000000000000000000000000000000000000000000000000000000000000000000000000010000000000000001000000000000000100000000000000010000000000000001000000000000000100000000000000010000000000000001000000000000000100000000000000010000000000000001000000000000000100000000000000010000000000000001000000000000000100000000000000010000000000000001000000000000000200000000000000020000000000000002000000000000000200000000000000020000000000000002000000000000000200000000000000020000000000000002000000000000000200000000000000020000000000000002000000000000000200000000000000020000000000000002000000000000000200000000000000030000000000000003000000000000000300000000000000030000000000000003000000000000000300000000000000030000000000000003000000000000000300000000000000030000000000000003000000000000000300000000000000030000000000000003000000000000000300000000000000030000000000000003000000000000000300000000000000030000000000000003000000000000000300000000000000030000000000000003000000000000000000000000000000000000000000000000000000000000000000000000000000000000000000000000000000000000000000000000000000000000000000000000000000000000000000000000000000000000000000000000000000000000000000000000000000000000000000000000000000000000000000000000000000000000000000000000000000000000000000000000000000000000000000000000000000000000000000000000000000000000000000000000000000000000000000000000000000000000000000000000000000000000000000000000000000000000000000000000000000000000000000000000000000000000000000000000000000000000000000000000000000000000000000000000000000000000000000000000000000000000000000000000000000000000000000000000000000000000000000000000000000000000000000000000000000000000000000000000000000000000000000000000000000000000000000000000000000000000000000000000000000000000000000000000000000000000000000000000000000000000000000000000000000000000000000000000000000000000000000000000000000000000000000000000000000000000000000000000000000000000000000000000000000000000000000000000000000000000000000000000000000000000000000000000000000000000000000000000000000000000000000000000